<?xml version="1.0"?>
<MethodSetup Method="MLP::MLP">
  <GeneralInfo>
    <Info name="TMVA Release" value="4.2.1 [262657]"/>
    <Info name="ROOT Release" value="6.12/06 [396294]"/>
    <Info name="Creator" value="lovell"/>
    <Info name="Date" value="Fri Jun  1 15:18:56 2018"/>
    <Info name="Host" value="Linux lcgapp-slc6-x86-64-3.cern.ch 2.6.32-696.18.7.el6.x86_64 #1 SMP Thu Jan 4 13:27:39 CET 2018 x86_64 x86_64 x86_64 GNU/Linux"/>
    <Info name="Dir" value="/var/clus/usera/lovell/MVATools/MVATraining/work"/>
    <Info name="Training events" value="5835"/>
    <Info name="TrainingTime" value="2.84332628e+01"/>
    <Info name="AnalysisType" value="Classification"/>
  </GeneralInfo>
  <Options>
    <Option name="NCycles" modified="Yes">600</Option>
    <Option name="HiddenLayers" modified="Yes">19</Option>
    <Option name="NeuronType" modified="Yes">tanh</Option>
    <Option name="RandomSeed" modified="No">1</Option>
    <Option name="EstimatorType" modified="No">CE</Option>
    <Option name="NeuronInputType" modified="No">sum</Option>
    <Option name="V" modified="Yes">True</Option>
    <Option name="VerbosityLevel" modified="No">Verbose</Option>
    <Option name="VarTransform" modified="Yes">N</Option>
    <Option name="H" modified="Yes">False</Option>
    <Option name="CreateMVAPdfs" modified="No">False</Option>
    <Option name="IgnoreNegWeightsInTraining" modified="No">False</Option>
    <Option name="TrainingMethod" modified="No">BP</Option>
    <Option name="LearningRate" modified="No">2.000000e-02</Option>
    <Option name="DecayRate" modified="No">1.000000e-02</Option>
    <Option name="TestRate" modified="Yes">5</Option>
    <Option name="EpochMonitoring" modified="No">False</Option>
    <Option name="Sampling" modified="No">1.000000e+00</Option>
    <Option name="SamplingEpoch" modified="No">1.000000e+00</Option>
    <Option name="SamplingImportance" modified="No">1.000000e+00</Option>
    <Option name="SamplingTraining" modified="No">True</Option>
    <Option name="SamplingTesting" modified="No">False</Option>
    <Option name="ResetStep" modified="No">50</Option>
    <Option name="Tau" modified="No">3.000000e+00</Option>
    <Option name="BPMode" modified="No">sequential</Option>
    <Option name="BatchSize" modified="No">-1</Option>
    <Option name="ConvergenceImprove" modified="No">1.000000e-30</Option>
    <Option name="ConvergenceTests" modified="No">-1</Option>
    <Option name="UseRegulator" modified="Yes">False</Option>
    <Option name="UpdateLimit" modified="No">10000</Option>
    <Option name="CalculateErrors" modified="No">False</Option>
    <Option name="WeightRange" modified="No">1.000000e+00</Option>
  </Options>
  <Variables NVar="14">
    <Variable VarIndex="0" Expression="B_ipchi2_ownpv				" Label="B_ipchi2_ownpv				" Title="B_ipchi2_ownpv				" Unit="" Internal="B_ipchi2_ownpv				" Type="F" Min="1.66263446e-04" Max="1.99696922e+01"/>
    <Variable VarIndex="1" Expression="B_fdchi2_ownpv				" Label="B_fdchi2_ownpv				" Title="B_fdchi2_ownpv				" Unit="" Internal="B_fdchi2_ownpv				" Type="F" Min="1.00717842e+02" Max="6.15936312e+05"/>
    <Variable VarIndex="2" Expression="B_PVFit_chi2_div_ndof		" Label="B_PVFit_chi2_div_ndof		" Title="B_PVFit_chi2_div_ndof		" Unit="" Internal="B_PVFit_chi2_div_ndof		" Type="F" Min="1.20547168e-01" Max="6.72939758e+01"/>
    <Variable VarIndex="3" Expression="B_PT_ASYMMETRY				" Label="B_PT_ASYMMETRY				" Title="B_PT_ASYMMETRY				" Unit="" Internal="B_PT_ASYMMETRY				" Type="F" Min="-9.91914630e-01" Max="1.00000000e+00"/>
    <Variable VarIndex="4" Expression="K_1_1270_ipchi2_ownpv		" Label="K_1_1270_ipchi2_ownpv		" Title="K_1_1270_ipchi2_ownpv		" Unit="" Internal="K_1_1270_ipchi2_ownpv		" Type="F" Min="1.81015924e-01" Max="5.57220352e+04"/>
    <Variable VarIndex="5" Expression="K_1_1270_plus_VERTEX		" Label="K_1_1270_plus_VERTEX		" Title="K_1_1270_plus_VERTEX		" Unit="" Internal="K_1_1270_plus_VERTEX		" Type="F" Min="9.86194331e-03" Max="7.95970678e+00"/>
    <Variable VarIndex="6" Expression="Z_D_minus_Z_B_div_error		" Label="Z_D_minus_Z_B_div_error		" Title="Z_D_minus_Z_B_div_error		" Unit="" Internal="Z_D_minus_Z_B_div_error		" Type="F" Min="6.51146926e-04" Max="1.38702515e+02"/>
    <Variable VarIndex="7" Expression="Bach_Min_IPCHI2_PV			" Label="Bach_Min_IPCHI2_PV			" Title="Bach_Min_IPCHI2_PV			" Unit="" Internal="Bach_Min_IPCHI2_PV			" Type="F" Min="4.00260925e+00" Max="1.31034863e+04"/>
    <Variable VarIndex="8" Expression="Bach_Min_PT					" Label="Bach_Min_PT					" Title="Bach_Min_PT					" Unit="" Internal="Bach_Min_PT					" Type="F" Min="1.01141876e+02" Max="6.93747217e+03"/>
    <Variable VarIndex="9" Expression="DdauPi_Min_IPCHI2_PV		" Label="DdauPi_Min_IPCHI2_PV		" Title="DdauPi_Min_IPCHI2_PV		" Unit="" Internal="DdauPi_Min_IPCHI2_PV		" Type="F" Min="4.00764608e+00" Max="2.39644883e+04"/>
    <Variable VarIndex="10" Expression="DdauPi_Max_IPCHI2_PV		" Label="DdauPi_Max_IPCHI2_PV		" Title="DdauPi_Max_IPCHI2_PV		" Unit="" Internal="DdauPi_Max_IPCHI2_PV		" Type="F" Min="4.94511890e+00" Max="7.02592656e+04"/>
    <Variable VarIndex="11" Expression="Max_cos_phi_D0_bach			" Label="Max_cos_phi_D0_bach			" Title="Max_cos_phi_D0_bach			" Unit="" Internal="Max_cos_phi_D0_bach			" Type="F" Min="9.77177143e-01" Max="9.99999166e-01"/>
    <Variable VarIndex="12" Expression="Massh1h2					" Label="Massh1h2					" Title="Massh1h2					" Unit="" Internal="Massh1h2					" Type="F" Min="7.92047546e+02" Max="9.91982056e+02"/>
    <Variable VarIndex="13" Expression="Massh2h3					" Label="Massh2h3					" Title="Massh2h3					" Unit="" Internal="Massh2h3					" Type="F" Min="2.83126495e+02" Max="1.47021143e+03"/>
  </Variables>
  <Spectators NSpec="0"/>
  <Classes NClass="2">
    <Class Name="Signal" Index="0"/>
    <Class Name="Background" Index="1"/>
  </Classes>
  <Transformations NTransformations="1">
    <Transform Name="Normalize">
      <Selection>
        <Input NInputs="14">
          <Input Type="Variable" Label="B_ipchi2_ownpv				" Expression="B_ipchi2_ownpv				"/>
          <Input Type="Variable" Label="B_fdchi2_ownpv				" Expression="B_fdchi2_ownpv				"/>
          <Input Type="Variable" Label="B_PVFit_chi2_div_ndof		" Expression="B_PVFit_chi2_div_ndof		"/>
          <Input Type="Variable" Label="B_PT_ASYMMETRY				" Expression="B_PT_ASYMMETRY				"/>
          <Input Type="Variable" Label="K_1_1270_ipchi2_ownpv		" Expression="K_1_1270_ipchi2_ownpv		"/>
          <Input Type="Variable" Label="K_1_1270_plus_VERTEX		" Expression="K_1_1270_plus_VERTEX		"/>
          <Input Type="Variable" Label="Z_D_minus_Z_B_div_error		" Expression="Z_D_minus_Z_B_div_error		"/>
          <Input Type="Variable" Label="Bach_Min_IPCHI2_PV			" Expression="Bach_Min_IPCHI2_PV			"/>
          <Input Type="Variable" Label="Bach_Min_PT					" Expression="Bach_Min_PT					"/>
          <Input Type="Variable" Label="DdauPi_Min_IPCHI2_PV		" Expression="DdauPi_Min_IPCHI2_PV		"/>
          <Input Type="Variable" Label="DdauPi_Max_IPCHI2_PV		" Expression="DdauPi_Max_IPCHI2_PV		"/>
          <Input Type="Variable" Label="Max_cos_phi_D0_bach			" Expression="Max_cos_phi_D0_bach			"/>
          <Input Type="Variable" Label="Massh1h2					" Expression="Massh1h2					"/>
          <Input Type="Variable" Label="Massh2h3					" Expression="Massh2h3					"/>
        </Input>
        <Output NOutputs="14">
          <Output Type="Variable" Label="B_ipchi2_ownpv				" Expression="B_ipchi2_ownpv				"/>
          <Output Type="Variable" Label="B_fdchi2_ownpv				" Expression="B_fdchi2_ownpv				"/>
          <Output Type="Variable" Label="B_PVFit_chi2_div_ndof		" Expression="B_PVFit_chi2_div_ndof		"/>
          <Output Type="Variable" Label="B_PT_ASYMMETRY				" Expression="B_PT_ASYMMETRY				"/>
          <Output Type="Variable" Label="K_1_1270_ipchi2_ownpv		" Expression="K_1_1270_ipchi2_ownpv		"/>
          <Output Type="Variable" Label="K_1_1270_plus_VERTEX		" Expression="K_1_1270_plus_VERTEX		"/>
          <Output Type="Variable" Label="Z_D_minus_Z_B_div_error		" Expression="Z_D_minus_Z_B_div_error		"/>
          <Output Type="Variable" Label="Bach_Min_IPCHI2_PV			" Expression="Bach_Min_IPCHI2_PV			"/>
          <Output Type="Variable" Label="Bach_Min_PT					" Expression="Bach_Min_PT					"/>
          <Output Type="Variable" Label="DdauPi_Min_IPCHI2_PV		" Expression="DdauPi_Min_IPCHI2_PV		"/>
          <Output Type="Variable" Label="DdauPi_Max_IPCHI2_PV		" Expression="DdauPi_Max_IPCHI2_PV		"/>
          <Output Type="Variable" Label="Max_cos_phi_D0_bach			" Expression="Max_cos_phi_D0_bach			"/>
          <Output Type="Variable" Label="Massh1h2					" Expression="Massh1h2					"/>
          <Output Type="Variable" Label="Massh2h3					" Expression="Massh2h3					"/>
        </Output>
      </Selection>
      <Class ClassIndex="0">
        <Ranges>
          <Range Index="0" Min="1.6626344586256891e-04" Max="1.9343137741088867e+01"/>
          <Range Index="1" Min="1.1186721038818359e+02" Max="6.1593631250000000e+05"/>
          <Range Index="2" Min="1.2054716795682907e-01" Max="1.4589796066284180e+01"/>
          <Range Index="3" Min="-9.5080870389938354e-01" Max="1.0000000000000000e+00"/>
          <Range Index="4" Min="2.1363599300384521e+00" Max="4.4549546875000000e+04"/>
          <Range Index="5" Min="9.8619433119893074e-03" Max="7.9597067832946777e+00"/>
          <Range Index="6" Min="9.6707983175292611e-04" Max="1.2895204162597656e+02"/>
          <Range Index="7" Min="4.0049037933349609e+00" Max="1.3103486328125000e+04"/>
          <Range Index="8" Min="1.0495126342773438e+02" Max="6.9374721679687500e+03"/>
          <Range Index="9" Min="4.1208767890930176e+00" Max="2.3964488281250000e+04"/>
          <Range Index="10" Min="2.0528060913085938e+01" Max="7.0259265625000000e+04"/>
          <Range Index="11" Min="9.9054372310638428e-01" Max="9.9999916553497314e-01"/>
          <Range Index="12" Min="7.9267657470703125e+02" Max="9.9198205566406250e+02"/>
          <Range Index="13" Min="2.8816815185546875e+02" Max="1.4702114257812500e+03"/>
        </Ranges>
      </Class>
      <Class ClassIndex="1">
        <Ranges>
          <Range Index="0" Min="1.9575580954551697e-03" Max="1.9969692230224609e+01"/>
          <Range Index="1" Min="1.0071784210205078e+02" Max="5.4468500000000000e+05"/>
          <Range Index="2" Min="4.5273783802986145e-01" Max="6.7293975830078125e+01"/>
          <Range Index="3" Min="-9.9191462993621826e-01" Max="1.0000000000000000e+00"/>
          <Range Index="4" Min="1.8101592361927032e-01" Max="5.5722035156250000e+04"/>
          <Range Index="5" Min="1.1317972093820572e-02" Max="7.9510102272033691e+00"/>
          <Range Index="6" Min="6.5114692552015185e-04" Max="1.3870251464843750e+02"/>
          <Range Index="7" Min="4.0026092529296875e+00" Max="9.2399482421875000e+03"/>
          <Range Index="8" Min="1.0114187622070312e+02" Max="5.1284013671875000e+03"/>
          <Range Index="9" Min="4.0076460838317871e+00" Max="5.5197636718750000e+03"/>
          <Range Index="10" Min="4.9451189041137695e+00" Max="3.5079000000000000e+04"/>
          <Range Index="11" Min="9.7717714309692383e-01" Max="9.9999874830245972e-01"/>
          <Range Index="12" Min="7.9204754638671875e+02" Max="9.9193890380859375e+02"/>
          <Range Index="13" Min="2.8312649536132812e+02" Max="1.4649033203125000e+03"/>
        </Ranges>
      </Class>
      <Class ClassIndex="2">
        <Ranges>
          <Range Index="0" Min="1.6626344586256891e-04" Max="1.9969692230224609e+01"/>
          <Range Index="1" Min="1.0071784210205078e+02" Max="6.1593631250000000e+05"/>
          <Range Index="2" Min="1.2054716795682907e-01" Max="6.7293975830078125e+01"/>
          <Range Index="3" Min="-9.9191462993621826e-01" Max="1.0000000000000000e+00"/>
          <Range Index="4" Min="1.8101592361927032e-01" Max="5.5722035156250000e+04"/>
          <Range Index="5" Min="9.8619433119893074e-03" Max="7.9597067832946777e+00"/>
          <Range Index="6" Min="6.5114692552015185e-04" Max="1.3870251464843750e+02"/>
          <Range Index="7" Min="4.0026092529296875e+00" Max="1.3103486328125000e+04"/>
          <Range Index="8" Min="1.0114187622070312e+02" Max="6.9374721679687500e+03"/>
          <Range Index="9" Min="4.0076460838317871e+00" Max="2.3964488281250000e+04"/>
          <Range Index="10" Min="4.9451189041137695e+00" Max="7.0259265625000000e+04"/>
          <Range Index="11" Min="9.7717714309692383e-01" Max="9.9999916553497314e-01"/>
          <Range Index="12" Min="7.9204754638671875e+02" Max="9.9198205566406250e+02"/>
          <Range Index="13" Min="2.8312649536132812e+02" Max="1.4702114257812500e+03"/>
        </Ranges>
      </Class>
    </Transform>
  </Transformations>
  <MVAPdfs/>
  <Weights>
    <Layout NLayers="3">
      <Layer Index="0" NNeurons="15">
        <Neuron NSynapses="19">
          7.6635416927178313e-01 1.8222775566451763e+00 7.8113184347619791e-01 1.7359020240776726e+00 -1.6940017834813863e+00 -1.2320110240029962e+00 -1.0843941650245108e+00 1.9743798300895106e+00 -2.8509693599746746e+00 -9.9832311458313117e-01 -1.1510402255856516e+00 -1.5423552987743667e+00 -5.3609684916810570e-02 -1.0535726156819113e-01 -8.5087288170531361e-01 1.7658894339771036e+00 3.4295327912865536e-01 1.5690789366139721e+00 1.5515463849714645e-01 
        </Neuron>
        <Neuron NSynapses="19">
          1.7783217342223010e+00 -7.5876842369373376e-01 -2.9101263635501817e-01 7.8963743166252043e-01 2.8536409462668089e-01 -1.6230670588451965e+00 -2.4106915085866532e-01 1.4970483829377257e+00 -9.3638663908008679e-01 -2.0543106847434753e+00 1.7789421706968614e-01 3.9288599355444020e-01 6.5209989307699601e-01 -6.7167014750060383e-01 -4.9953589710143387e-01 -2.3846543974268114e-01 -3.2231802616564365e-01 -1.7983928522676242e+00 1.7550107723979123e+00 
        </Neuron>
        <Neuron NSynapses="19">
          2.2164049405114947e+00 3.1391195978994229e+00 1.7947268933334464e+00 7.8604628534892618e-01 2.1800717290837230e+00 9.8903495805151320e-01 -8.6307001538615646e-01 -2.7608006253745114e+00 2.6607975739202430e+00 2.7168003786486827e-01 2.0857508324609717e+00 -7.4861993217940126e-01 -9.4342568014500772e-01 1.7357120662445947e+01 -1.9174990404639765e+00 4.2187193393066842e+00 4.3071071638683978e-01 -7.5960836418960587e-01 -1.3202548213859253e+00 
        </Neuron>
        <Neuron NSynapses="19">
          -1.2204355917832663e+00 3.1000148834208496e-01 4.9621252577848152e+00 -1.6005107539993326e+00 4.5042527066217808e-01 -5.2188865117323435e-01 3.9519554136531260e-01 5.3452594686356047e-01 3.5589862951786311e-01 2.2946451990871633e-01 -2.6174049231527028e+00 4.2082093252013086e-01 -2.7603981425003998e-01 -8.7574016050502468e-01 -1.3202550505209387e+00 1.1031392144157696e-01 9.7123520147235398e-01 1.5524432783821263e+00 -3.5077402639771033e-01 
        </Neuron>
        <Neuron NSynapses="19">
          -1.8980026592671080e+00 -6.6844063505228057e-01 1.0626605556467821e+00 5.7937055763512857e-01 2.1317387189336068e+00 1.8825101054996546e-01 1.0217490095758794e+00 -1.9332323644145226e+00 -1.0409983881959071e-01 -3.5597714307750472e-01 1.0657047259537551e+00 -1.5097155563409330e+00 -2.2878533982392351e+00 -8.5056075143887657e+00 -5.2550405427406377e-01 -4.3736508903347399e-01 2.9465535584367659e+00 -2.1413216023270105e+00 -8.2560668860203379e-01 
        </Neuron>
        <Neuron NSynapses="19">
          4.5855207475709681e-01 -1.8579438819909846e+00 -4.2094687810668641e-01 -1.5565490353228622e+00 4.8790791508094095e-01 -1.9141622339923270e+00 -2.1427118394589377e+00 1.9426745055464534e+00 2.3608226832716541e+00 -9.9033395922140832e-01 1.6436215813980322e+00 -3.1803072967637375e-01 -1.9487952021603711e-01 -1.7144060746139663e-02 2.1592579924581065e-01 -1.2742607726360329e+00 5.8359096126208865e-01 7.7348870890310650e-01 4.5612811301560025e-01 
        </Neuron>
        <Neuron NSynapses="19">
          -4.2721048448857468e+00 1.2356236555808240e+00 1.3064321263845458e-01 -1.0367674057432237e+00 7.3477501149621760e-01 -1.3742506483111299e+00 -1.3717844268832100e+00 7.7951493818176676e-01 1.8195113756367249e+00 2.0273579983468766e+00 -5.5205746536204373e-02 2.5736252959833711e-01 5.7068305396746855e-01 9.4926355680855579e-01 -1.5894155362745166e+00 -1.0111815244537443e+00 -6.3275203001973934e-01 -1.6460151895435415e+00 6.5464493227478704e-01 
        </Neuron>
        <Neuron NSynapses="19">
          -8.4841305250284904e-01 -1.0971921781518716e+00 2.0545600044442001e+00 1.7796772169071720e+00 -1.5359810597236681e+00 1.6066145657039073e-02 1.5161708124301294e+00 1.2992765789611853e+00 -4.2747059829723022e-01 -1.3983209033891149e+00 -1.0554031663345119e-01 -1.1683448524787401e+00 1.9687501173410098e+00 -5.6540759561052818e+00 -8.2349307774017622e-01 -8.1177838955103476e-01 -1.4417094980462417e-01 -1.0805522879915304e+00 6.0868943266517483e-01 
        </Neuron>
        <Neuron NSynapses="19">
          3.9554107944434045e+00 -1.8962601401541972e+00 -6.5052199444594935e-02 2.1590719107364084e-01 1.4636546520497551e+00 2.7081674713787762e-01 9.1318678948005128e-01 1.4859510236614501e-01 5.5109642251560198e-01 9.6321537166130222e-01 -5.2518837953005704e-01 3.2868812546837454e+00 1.9348732901016963e+00 -1.8407096019542216e-01 -8.6421377498103324e-01 -3.1550711733371450e-01 -3.6504200343654389e+00 -3.6408001893932757e-01 1.5848808358879842e+00 
        </Neuron>
        <Neuron NSynapses="19">
          -9.5520839768426091e-01 -2.1081755562519704e+00 1.0519310138665861e+00 1.8081853082173489e+00 -1.6263397179501211e+00 3.2509308967793749e-01 6.4776327631143854e-02 1.5842636132692725e+00 -2.0306831367405822e+00 -1.3688757820863779e+00 3.0332879117394312e-01 2.9661464647724971e+00 -4.2881722751072066e-01 -6.4123343127971717e+00 -8.3959229471364627e-01 -1.2960900820833532e+00 9.2230679262624882e-01 -2.7632791341725205e-01 -4.8133749131349762e-01 
        </Neuron>
        <Neuron NSynapses="19">
          -2.2190475426473419e+00 4.0179897918261695e-02 1.8785932349642531e+00 1.0382343648635202e+00 6.1170344501949792e-01 -1.0991807118154349e+00 -1.9873853913680635e+00 8.3043006457450375e-01 8.1674195040448469e-02 -1.2297732154373509e+00 -1.0053808739746346e+00 -1.1161735502569663e+00 1.2144669059214247e-01 -4.1399991366108919e+00 1.3200252872010363e+00 8.1532272479578050e-01 -1.1975101146083478e+00 -1.2231373801869738e-02 1.6337196183700089e+00 
        </Neuron>
        <Neuron NSynapses="19">
          -1.1292216500379986e+00 -3.9529974528737893e-01 7.2822273360006340e-01 -1.8719641161276441e+00 -1.1885004322494890e+00 1.7102742610119246e+00 1.3042738294569636e+00 1.5828508897713736e+00 1.1514206935716929e+00 1.8294994461160397e+00 -1.7941823834560300e+00 -7.1272669921241938e-01 4.0479031419597761e-01 -1.3198344185224962e+00 1.2004269575103301e+00 8.9645954676286832e-01 6.5691532441136169e-01 7.1226171878759503e-01 -1.4305367934762295e-01 
        </Neuron>
        <Neuron NSynapses="19">
          5.5868902004392450e-02 -1.0928196672847739e+00 -1.8272861084403053e-01 3.5326927966756135e-02 7.3513158467476292e-01 -8.1012706300117576e-01 1.5959371744131545e+00 -2.7020045343580699e+00 5.0165654708336206e-02 2.2807758185406318e-01 -1.3741478529499485e+00 -1.5022454874189600e-01 -3.1114511629373944e+00 -1.5780677006038848e-01 -1.6340288874216184e+00 -3.5164580800896181e+00 -3.3625667828516006e+00 7.9193498846219901e-02 -1.0146610760070018e+00 
        </Neuron>
        <Neuron NSynapses="19">
          -3.8309658740116276e-01 1.0303187681364712e+00 -1.4146741916730363e+00 1.6788285158992614e-01 -9.8021583951987767e-01 3.9943892640498968e-01 1.5598899935720105e+00 9.3849574361432120e-01 4.4748644573017737e-01 -1.5445349527553873e+00 -7.2177051686685800e-01 -3.7050497051501280e-01 5.9784806858042765e-02 5.5761661098975644e-02 1.8721666643277385e-01 1.4200297180624499e+00 -4.0111753346993267e-01 1.4774563717999553e-01 -5.2823275795553415e-01 
        </Neuron>
        <Neuron NSynapses="19">
          -3.1879447287113449e+00 8.5303271791043767e-01 1.2693819663830004e+00 -7.5940816497784336e-01 -1.4010859835060372e+00 1.1264919459550398e+00 1.3259616702283885e+00 9.2239645856942742e-01 -1.3901680162246988e+00 -5.0308514693322215e-01 1.2717425659870634e+00 1.9603796493188290e+00 2.0674129322120640e+00 -6.9748385063345459e+00 4.9093432179594820e-01 -1.0189018487155348e+00 -2.5423324654932213e+00 -7.0277834634855652e-01 -1.7607606593403298e+00 
        </Neuron>
      </Layer>
      <Layer Index="1" NNeurons="20">
        <Neuron NSynapses="1">
          -2.5145517538177908e+00 
        </Neuron>
        <Neuron NSynapses="1">
          -1.5695882600104323e+00 
        </Neuron>
        <Neuron NSynapses="1">
          3.7469794347636842e+00 
        </Neuron>
        <Neuron NSynapses="1">
          -1.2274794903473489e+00 
        </Neuron>
        <Neuron NSynapses="1">
          2.1677894965202000e+00 
        </Neuron>
        <Neuron NSynapses="1">
          -2.0818570799223455e+00 
        </Neuron>
        <Neuron NSynapses="1">
          6.4967486486445769e-01 
        </Neuron>
        <Neuron NSynapses="1">
          1.3369801623905460e+00 
        </Neuron>
        <Neuron NSynapses="1">
          -9.2550369934107368e-01 
        </Neuron>
        <Neuron NSynapses="1">
          9.4004884889536910e-01 
        </Neuron>
        <Neuron NSynapses="1">
          -8.1879449547685901e-01 
        </Neuron>
        <Neuron NSynapses="1">
          1.4295977957261123e+00 
        </Neuron>
        <Neuron NSynapses="1">
          1.5714612608099705e+00 
        </Neuron>
        <Neuron NSynapses="1">
          -3.1460594592389999e+00 
        </Neuron>
        <Neuron NSynapses="1">
          -2.0171141617124175e+00 
        </Neuron>
        <Neuron NSynapses="1">
          -1.2895377292348917e+00 
        </Neuron>
        <Neuron NSynapses="1">
          -1.2578826864028241e+00 
        </Neuron>
        <Neuron NSynapses="1">
          2.5320973818216168e+00 
        </Neuron>
        <Neuron NSynapses="1">
          9.4361646185711578e-02 
        </Neuron>
        <Neuron NSynapses="1">
          -3.5357979217132840e-01 
        </Neuron>
      </Layer>
      <Layer Index="2" NNeurons="1">
        <Neuron NSynapses="0"/>
      </Layer>
    </Layout>
  </Weights>
</MethodSetup>
